const unsigned char model[] = {
  0x1c, 0x00, 0x00, 0x00, 0x54, 0x46, 0x4c, 0x33, 0x14, 0x00, 0x20, 0x00,
  0x04, 0x00, 0x08, 0x00, 0x0c, 0x00, 0x10, 0x00, 0x14, 0x00, 0x00, 0x00,
  0x18, 0x00, 0x1c, 0x00, 0x14, 0x00, 0x00, 0x00, 0x03, 0x00, 0x00, 0x00,
  0x58, 0x00, 0x00, 0x00, 0x4c, 0x00, 0x00, 0x00, 0xb0, 0x00, 0x00, 0x00,
  0x0c, 0x00, 0x00, 0x00, 0x58, 0x00, 0x00, 0x00, 0x50, 0x00, 0x00, 0x00,
  0x0d, 0x00, 0x00, 0x00, 0x10, 0x0c, 0x00, 0x00, 0x0c, 0x0c, 0x00, 0x00,
  0xf8, 0x0a, 0x00, 0x00, 0x60, 0x0a, 0x00, 0x00, 0xe8, 0x09, 0x00, 0x00,
  0xf0, 0x06, 0x00, 0x00, 0xd8, 0x04, 0x00, 0x00, 0x20, 0x04, 0x00, 0x00,
  0xf0, 0x0b, 0x00, 0x00, 0xec, 0x0b, 0x00, 0x00, 0xe8, 0x0b, 0x00, 0x00,
  0xe4, 0x0b, 0x00, 0x00, 0x50, 0x00, 0x00, 0x00, 0x01, 0x00, 0x00, 0x00,
  0x88, 0x00, 0x00, 0x00, 0x02, 0x00, 0x00, 0x00, 0x5c, 0x03, 0x00, 0x00,
  0x34, 0x01, 0x00, 0x00, 0x00, 0x00, 0x00, 0x00, 0x01, 0x00, 0x00, 0x00,
  0x0c, 0x00, 0x00, 0x00, 0x08, 0x00, 0x0c, 0x00, 0x04, 0x00, 0x08, 0x00,
  0x08, 0x00, 0x00, 0x00, 0x08, 0x00, 0x00, 0x00, 0x0c, 0x00, 0x00, 0x00,
  0x13, 0x00, 0x00, 0x00, 0x6d, 0x69, 0x6e, 0x5f, 0x72, 0x75, 0x6e, 0x74,
  0x69, 0x6d, 0x65, 0x5f, 0x76, 0x65, 0x72, 0x73, 0x69, 0x6f, 0x6e, 0x00,
  0x86, 0xf5, 0xff, 0xff, 0x04, 0x00, 0x00, 0x00, 0x10, 0x00, 0x00, 0x00,
  0x31, 0x2e, 0x35, 0x2e, 0x30, 0x00, 0x00, 0x00, 0x00, 0x00, 0x00, 0x00,
  0x00, 0x00, 0x00, 0x00, 0x0f, 0x00, 0x00, 0x00, 0x4d, 0x4c, 0x49, 0x52,
  0x20, 0x43, 0x6f, 0x6e, 0x76, 0x65, 0x72, 0x74, 0x65, 0x64, 0x2e, 0x00,
  0x00, 0x00, 0x0e, 0x00, 0x18, 0x00, 0x04, 0x00, 0x08, 0x00, 0x0c, 0x00,
  0x10, 0x00, 0x14, 0x00, 0x0e, 0x00, 0x00, 0x00, 0x44, 0x00, 0x00, 0x00,
  0x38, 0x00, 0x00, 0x00, 0x2c, 0x00, 0x00, 0x00, 0x14, 0x00, 0x00, 0x00,
  0x04, 0x00, 0x00, 0x00, 0x04, 0x00, 0x00, 0x00, 0x6d, 0x61, 0x69, 0x6e,
  0x00, 0x00, 0x00, 0x00, 0x04, 0x00, 0x00, 0x00, 0x6c, 0x02, 0x00, 0x00,
  0x94, 0x01, 0x00, 0x00, 0xdc, 0x00, 0x00, 0x00, 0x54, 0x00, 0x00, 0x00,
  0x01, 0x00, 0x00, 0x00, 0x0a, 0x00, 0x00, 0x00, 0x01, 0x00, 0x00, 0x00,
  0x00, 0x00, 0x00, 0x00, 0x0b, 0x00, 0x00, 0x00, 0xb8, 0x0a, 0x00, 0x00,
  0x44, 0x0a, 0x00, 0x00, 0x84, 0x09, 0x00, 0x00, 0xf8, 0x08, 0x00, 0x00,
  0x94, 0x08, 0x00, 0x00, 0x9c, 0x05, 0x00, 0x00, 0x84, 0x03, 0x00, 0x00,
  0x84, 0x02, 0x00, 0x00, 0x88, 0x01, 0x00, 0x00, 0xcc, 0x00, 0x00, 0x00,
  0x54, 0x00, 0x00, 0x00, 0x00, 0x00, 0x0e, 0x00, 0x18, 0x00, 0x08, 0x00,
  0x0c, 0x00, 0x10, 0x00, 0x07, 0x00, 0x14, 0x00, 0x0e, 0x00, 0x00, 0x00,
  0x00, 0x00, 0x00, 0x09, 0x01, 0x00, 0x00, 0x00, 0x1c, 0x00, 0x00, 0x00,
  0x10, 0x00, 0x00, 0x00, 0x04, 0x00, 0x00, 0x00, 0x66, 0xf6, 0xff, 0xff,
  0x00, 0x00, 0x80, 0x3f, 0x01, 0x00, 0x00, 0x00, 0x0a, 0x00, 0x00, 0x00,
  0x01, 0x00, 0x00, 0x00, 0x09, 0x00, 0x00, 0x00, 0xe8, 0xfd, 0xff, 0xff,
  0x19, 0x00, 0x00, 0x00, 0x00, 0x00, 0x00, 0x19, 0x01, 0x00, 0x00, 0x00,
  0xd8, 0xf5, 0xff, 0xff, 0x30, 0x00, 0x00, 0x00, 0x0b, 0x00, 0x00, 0x00,
  0x18, 0x00, 0x00, 0x00, 0x30, 0x00, 0x00, 0x00, 0x04, 0x00, 0x00, 0x00,
  0x02, 0x00, 0x00, 0x00, 0xff, 0xff, 0xff, 0xff, 0x03, 0x00, 0x00, 0x00,
  0x08, 0x00, 0x00, 0x00, 0x49, 0x64, 0x65, 0x6e, 0x74, 0x69, 0x74, 0x79,
  0x00, 0x00, 0x00, 0x00, 0x02, 0x00, 0x00, 0x00, 0x01, 0x00, 0x00, 0x00,
  0x03, 0x00, 0x00, 0x00, 0xbc, 0xf5, 0xff, 0xff, 0x5a, 0xff, 0xff, 0xff,
  0x00, 0x00, 0x00, 0x08, 0x18, 0x00, 0x00, 0x00, 0x0c, 0x00, 0x00, 0x00,
  0x04, 0x00, 0x00, 0x00, 0xd4, 0xf5, 0xff, 0xff, 0x01, 0x00, 0x00, 0x00,
  0x09, 0x00, 0x00, 0x00, 0x03, 0x00, 0x00, 0x00, 0x08, 0x00, 0x00, 0x00,
  0x06, 0x00, 0x00, 0x00, 0x03, 0x00, 0x00, 0x00, 0x4c, 0xf6, 0xff, 0xff,
  0x60, 0x00, 0x00, 0x00, 0x0a, 0x00, 0x00, 0x00, 0x18, 0x00, 0x00, 0x00,
  0x60, 0x00, 0x00, 0x00, 0x04, 0x00, 0x00, 0x00, 0x02, 0x00, 0x00, 0x00,
  0xff, 0xff, 0xff, 0xff, 0x03, 0x00, 0x00, 0x00, 0x3a, 0x00, 0x00, 0x00,
  0x73, 0x65, 0x71, 0x75, 0x65, 0x6e, 0x74, 0x69, 0x61, 0x6c, 0x5f, 0x35,
  0x2f, 0x64, 0x65, 0x6e, 0x73, 0x65, 0x5f, 0x31, 0x37, 0x2f, 0x4d, 0x61,
  0x74, 0x4d, 0x75, 0x6c, 0x3b, 0x73, 0x65, 0x71, 0x75, 0x65, 0x6e, 0x74,
  0x69, 0x61, 0x6c, 0x5f, 0x35, 0x2f, 0x64, 0x65, 0x6e, 0x73, 0x65, 0x5f,
  0x31, 0x37, 0x2f, 0x42, 0x69, 0x61, 0x73, 0x41, 0x64, 0x64, 0x00, 0x00,
  0x02, 0x00, 0x00, 0x00, 0x01, 0x00, 0x00, 0x00, 0x03, 0x00, 0x00, 0x00,
  0x7c, 0xf7, 0xff, 0xff, 0x00, 0x00, 0x0e, 0x00, 0x14, 0x00, 0x00, 0x00,
  0x08, 0x00, 0x0c, 0x00, 0x07, 0x00, 0x10, 0x00, 0x0e, 0x00, 0x00, 0x00,
  0x00, 0x00, 0x00, 0x08, 0x1c, 0x00, 0x00, 0x00, 0x10, 0x00, 0x00, 0x00,
  0x04, 0x00, 0x00, 0x00, 0x2a, 0xff, 0xff, 0xff, 0x00, 0x00, 0x00, 0x01,
  0x01, 0x00, 0x00, 0x00, 0x08, 0x00, 0x00, 0x00, 0x03, 0x00, 0x00, 0x00,
  0x07, 0x00, 0x00, 0x00, 0x05, 0x00, 0x00, 0x00, 0x02, 0x00, 0x00, 0x00,
  0x04, 0xf7, 0xff, 0xff, 0x7c, 0x00, 0x00, 0x00, 0x09, 0x00, 0x00, 0x00,
  0x18, 0x00, 0x00, 0x00, 0x7c, 0x00, 0x00, 0x00, 0x04, 0x00, 0x00, 0x00,
  0x02, 0x00, 0x00, 0x00, 0xff, 0xff, 0xff, 0xff, 0x08, 0x00, 0x00, 0x00,
  0x55, 0x00, 0x00, 0x00, 0x73, 0x65, 0x71, 0x75, 0x65, 0x6e, 0x74, 0x69,
  0x61, 0x6c, 0x5f, 0x35, 0x2f, 0x64, 0x65, 0x6e, 0x73, 0x65, 0x5f, 0x31,
  0x36, 0x2f, 0x4d, 0x61, 0x74, 0x4d, 0x75, 0x6c, 0x3b, 0x73, 0x65, 0x71,
  0x75, 0x65, 0x6e, 0x74, 0x69, 0x61, 0x6c, 0x5f, 0x35, 0x2f, 0x64, 0x65,
  0x6e, 0x73, 0x65, 0x5f, 0x31, 0x36, 0x2f, 0x52, 0x65, 0x6c, 0x75, 0x3b,
  0x73, 0x65, 0x71, 0x75, 0x65, 0x6e, 0x74, 0x69, 0x61, 0x6c, 0x5f, 0x35,
  0x2f, 0x64, 0x65, 0x6e, 0x73, 0x65, 0x5f, 0x31, 0x36, 0x2f, 0x42, 0x69,
  0x61, 0x73, 0x41, 0x64, 0x64, 0x00, 0x00, 0x00, 0x02, 0x00, 0x00, 0x00,
  0x01, 0x00, 0x00, 0x00, 0x08, 0x00, 0x00, 0x00, 0x50, 0xf8, 0xff, 0xff,
  0x00, 0x00, 0x0e, 0x00, 0x16, 0x00, 0x00, 0x00, 0x08, 0x00, 0x0c, 0x00,
  0x07, 0x00, 0x10, 0x00, 0x0e, 0x00, 0x00, 0x00, 0x00, 0x00, 0x00, 0x08,
  0x24, 0x00, 0x00, 0x00, 0x18, 0x00, 0x00, 0x00, 0x0c, 0x00, 0x00, 0x00,
  0x00, 0x00, 0x06, 0x00, 0x08, 0x00, 0x07, 0x00, 0x06, 0x00, 0x00, 0x00,
  0x00, 0x00, 0x00, 0x01, 0x01, 0x00, 0x00, 0x00, 0x07, 0x00, 0x00, 0x00,
  0x03, 0x00, 0x00, 0x00, 0x00, 0x00, 0x00, 0x00, 0x04, 0x00, 0x00, 0x00,
  0x01, 0x00, 0x00, 0x00, 0x0c, 0x00, 0x10, 0x00, 0x0b, 0x00, 0x00, 0x00,
  0x0c, 0x00, 0x04, 0x00, 0x0c, 0x00, 0x00, 0x00, 0x09, 0x00, 0x00, 0x00,
  0x00, 0x00, 0x00, 0x09, 0x01, 0x00, 0x00, 0x00, 0xfc, 0xf7, 0xff, 0xff,
  0x7c, 0x00, 0x00, 0x00, 0x08, 0x00, 0x00, 0x00, 0x18, 0x00, 0x00, 0x00,
  0x7c, 0x00, 0x00, 0x00, 0x04, 0x00, 0x00, 0x00, 0x02, 0x00, 0x00, 0x00,
  0xff, 0xff, 0xff, 0xff, 0x0e, 0x00, 0x00, 0x00, 0x55, 0x00, 0x00, 0x00,
  0x73, 0x65, 0x71, 0x75, 0x65, 0x6e, 0x74, 0x69, 0x61, 0x6c, 0x5f, 0x35,
  0x2f, 0x64, 0x65, 0x6e, 0x73, 0x65, 0x5f, 0x31, 0x35, 0x2f, 0x4d, 0x61,
  0x74, 0x4d, 0x75, 0x6c, 0x3b, 0x73, 0x65, 0x71, 0x75, 0x65, 0x6e, 0x74,
  0x69, 0x61, 0x6c, 0x5f, 0x35, 0x2f, 0x64, 0x65, 0x6e, 0x73, 0x65, 0x5f,
  0x31, 0x35, 0x2f, 0x52, 0x65, 0x6c, 0x75, 0x3b, 0x73, 0x65, 0x71, 0x75,
  0x65, 0x6e, 0x74, 0x69, 0x61, 0x6c, 0x5f, 0x35, 0x2f, 0x64, 0x65, 0x6e,
  0x73, 0x65, 0x5f, 0x31, 0x35, 0x2f, 0x42, 0x69, 0x61, 0x73, 0x41, 0x64,
  0x64, 0x00, 0x00, 0x00, 0x02, 0x00, 0x00, 0x00, 0x01, 0x00, 0x00, 0x00,
  0x0e, 0x00, 0x00, 0x00, 0x2c, 0xf8, 0xff, 0xff, 0x42, 0xf9, 0xff, 0xff,
  0x04, 0x00, 0x00, 0x00, 0x60, 0x00, 0x00, 0x00, 0x00, 0x3d, 0x4d, 0x3c,
  0xb5, 0x6e, 0x02, 0xbe, 0xbe, 0xd2, 0x1c, 0xbf, 0xff, 0x0b, 0x1c, 0x3f,
  0x9a, 0x38, 0xce, 0xbe, 0xd0, 0x75, 0x72, 0x3e, 0x78, 0x29, 0x20, 0xbf,
  0xfe, 0x7c, 0x6e, 0xbd, 0x70, 0x99, 0x61, 0x3d, 0x6a, 0x26, 0x02, 0xbe,
  0x1d, 0x27, 0xd5, 0xbe, 0xa2, 0x81, 0xb9, 0x3c, 0x75, 0xad, 0x0a, 0xbf,
  0x2c, 0x3b, 0x11, 0x3f, 0x08, 0x78, 0x9b, 0xbd, 0x26, 0xde, 0xb4, 0x3e,
  0x48, 0x0c, 0xc7, 0xbd, 0x83, 0x7d, 0x35, 0x3d, 0xe8, 0xa4, 0xd5, 0xbe,
  0x9a, 0x02, 0x0a, 0xbf, 0xaa, 0x23, 0xd3, 0xbe, 0xcc, 0x5e, 0x1a, 0xbe,
  0xd7, 0x38, 0x1a, 0x3f, 0x5e, 0x07, 0x84, 0xbe, 0x62, 0xf9, 0xff, 0xff,
  0x34, 0x00, 0x00, 0x00, 0x07, 0x00, 0x00, 0x00, 0x08, 0x00, 0x00, 0x00,
  0x34, 0x00, 0x00, 0x00, 0x1c, 0x00, 0x00, 0x00, 0x73, 0x65, 0x71, 0x75,
  0x65, 0x6e, 0x74, 0x69, 0x61, 0x6c, 0x5f, 0x35, 0x2f, 0x64, 0x65, 0x6e,
  0x73, 0x65, 0x5f, 0x31, 0x37, 0x2f, 0x4d, 0x61, 0x74, 0x4d, 0x75, 0x6c,
  0x00, 0x00, 0x00, 0x00, 0x02, 0x00, 0x00, 0x00, 0x03, 0x00, 0x00, 0x00,
  0x08, 0x00, 0x00, 0x00, 0xe0, 0xf8, 0xff, 0xff, 0xf6, 0xf9, 0xff, 0xff,
  0x04, 0x00, 0x00, 0x00, 0xc0, 0x01, 0x00, 0x00, 0x50, 0x92, 0x1e, 0x3e,
  0x34, 0xf1, 0xbc, 0x3e, 0xcd, 0xa0, 0x9a, 0xbe, 0xe8, 0x87, 0x48, 0xbd,
  0x26, 0xf3, 0xbd, 0xbe, 0xa4, 0x99, 0x49, 0xbe, 0x34, 0x35, 0x2c, 0x3e,
  0x32, 0x3b, 0x98, 0x3e, 0x68, 0x96, 0x08, 0x3e, 0x20, 0xef, 0xf1, 0x3d,
  0x98, 0x7a, 0x08, 0x3e, 0xf0, 0x75, 0x25, 0xbd, 0xed, 0x7e, 0xfe, 0xbe,
  0x8e, 0x2d, 0x8b, 0x3e, 0x6a, 0x22, 0x50, 0xbe, 0x8e, 0x70, 0x44, 0xbe,
  0x06, 0xb4, 0x3a, 0xbe, 0x19, 0xad, 0x94, 0xbe, 0x0e, 0xa5, 0xf5, 0x3e,
  0xf8, 0x81, 0xed, 0x3e, 0xa0, 0xc9, 0xe8, 0xbd, 0x3e, 0xdf, 0x98, 0xbe,
  0x1f, 0x34, 0x52, 0xbe, 0xf0, 0xda, 0x78, 0xbe, 0x42, 0x9a, 0x04, 0xbf,
  0xdb, 0xb4, 0xb4, 0x3d, 0x88, 0x78, 0x09, 0xbc, 0x82, 0x2b, 0x7e, 0xbe,
  0xdc, 0x7d, 0xfb, 0xbd, 0x68, 0xa2, 0xb1, 0x3d, 0xae, 0xef, 0x48, 0xbd,
  0xe9, 0x0a, 0x55, 0x3c, 0x58, 0xbb, 0x49, 0xbe, 0x90, 0xa5, 0x0c, 0xbe,
  0x86, 0x2e, 0x65, 0xbe, 0x80, 0x2c, 0x85, 0x3b, 0x87, 0x14, 0xce, 0xbc,
  0x17, 0x8b, 0x03, 0x3f, 0x65, 0x25, 0xcd, 0xbe, 0x9c, 0x4e, 0x87, 0xbd,
  0x6d, 0x34, 0x9e, 0x3e, 0x99, 0xaa, 0x08, 0xbc, 0xbf, 0x5e, 0x04, 0x3f,
  0xb8, 0xce, 0x55, 0x3e, 0xc8, 0x85, 0xd6, 0x3e, 0xb6, 0xee, 0x2a, 0x3d,
  0x88, 0x6c, 0x27, 0x3e, 0xa9, 0x56, 0xa0, 0x3e, 0x16, 0x22, 0xbe, 0x3e,
  0x2c, 0xc3, 0xf5, 0xbd, 0xf7, 0x95, 0x96, 0xbd, 0x98, 0x25, 0x19, 0xbd,
  0x80, 0x5d, 0xb5, 0xbb, 0x67, 0x6f, 0x9f, 0xbe, 0xf9, 0x65, 0xfd, 0x3e,
  0xcb, 0x3c, 0x3c, 0xbe, 0xd0, 0x1a, 0x96, 0x3d, 0x10, 0x6f, 0x70, 0xbe,
  0xd7, 0x35, 0x61, 0x3e, 0xe8, 0xd3, 0xf3, 0x3e, 0x13, 0xb7, 0x09, 0x3e,
  0x3d, 0x8a, 0x05, 0xbf, 0xf7, 0x43, 0x41, 0x3e, 0xf4, 0xf1, 0xf4, 0x3e,
  0x9f, 0x78, 0xd6, 0x3e, 0x29, 0x63, 0xb9, 0xbe, 0xaf, 0x3f, 0x00, 0xbf,
  0xd5, 0x51, 0xb6, 0x3e, 0xe5, 0xc1, 0xc5, 0x3e, 0xb3, 0xb0, 0xb3, 0xbe,
  0xe0, 0xbe, 0x5e, 0x3d, 0x20, 0x37, 0x82, 0xbc, 0xe8, 0x18, 0x3f, 0xbc,
  0x62, 0xba, 0x8d, 0x3e, 0x76, 0xd4, 0x09, 0xbf, 0xe1, 0x9b, 0x10, 0xbe,
  0x3a, 0x49, 0xb7, 0x3e, 0x30, 0xc0, 0xc3, 0x3e, 0xa7, 0x5e, 0x9d, 0xbe,
  0xb8, 0xba, 0x98, 0x3e, 0x08, 0x30, 0x14, 0xbd, 0xe6, 0x3d, 0x4b, 0xbd,
  0xa2, 0xe8, 0x14, 0xbe, 0x0e, 0x41, 0xf6, 0x3e, 0x50, 0xa5, 0x1d, 0xbe,
  0x7c, 0x50, 0xe7, 0xbe, 0xa4, 0xd3, 0xcd, 0xbe, 0xfa, 0x47, 0x59, 0xbe,
  0x79, 0xc0, 0x04, 0xbf, 0x20, 0x91, 0xf1, 0x3d, 0x93, 0xbc, 0xd6, 0xbe,
  0x56, 0x76, 0xb7, 0xbe, 0x25, 0x2f, 0xca, 0xbe, 0x12, 0xe2, 0x9b, 0xbe,
  0x38, 0x89, 0xb5, 0xbe, 0xd8, 0x6e, 0xab, 0xbe, 0x1a, 0xf6, 0xe0, 0x3e,
  0x6c, 0x58, 0x39, 0xbe, 0x28, 0xaa, 0x70, 0xbd, 0x40, 0xb5, 0x00, 0x3c,
  0xc2, 0x42, 0xf0, 0x3d, 0xf1, 0xc6, 0x93, 0x3c, 0xe7, 0xbe, 0x83, 0xbe,
  0xc9, 0xb1, 0x1c, 0xbf, 0xac, 0x2b, 0xe4, 0xbe, 0x16, 0x35, 0xad, 0xbe,
  0x1d, 0xcd, 0xd7, 0x3e, 0xb8, 0xeb, 0x67, 0x3e, 0x0c, 0x1f, 0x65, 0xbe,
  0x75, 0x79, 0xb8, 0x3e, 0x86, 0x06, 0x51, 0xbe, 0x37, 0x51, 0xeb, 0xbe,
  0x76, 0xfb, 0xff, 0xff, 0x34, 0x00, 0x00, 0x00, 0x06, 0x00, 0x00, 0x00,
  0x08, 0x00, 0x00, 0x00, 0x34, 0x00, 0x00, 0x00, 0x1c, 0x00, 0x00, 0x00,
  0x73, 0x65, 0x71, 0x75, 0x65, 0x6e, 0x74, 0x69, 0x61, 0x6c, 0x5f, 0x35,
  0x2f, 0x64, 0x65, 0x6e, 0x73, 0x65, 0x5f, 0x31, 0x36, 0x2f, 0x4d, 0x61,
  0x74, 0x4d, 0x75, 0x6c, 0x00, 0x00, 0x00, 0x00, 0x02, 0x00, 0x00, 0x00,
  0x08, 0x00, 0x00, 0x00, 0x0e, 0x00, 0x00, 0x00, 0xf4, 0xfa, 0xff, 0xff,
  0x0a, 0xfc, 0xff, 0xff, 0x04, 0x00, 0x00, 0x00, 0xa0, 0x02, 0x00, 0x00,
  0xe0, 0x17, 0x85, 0x3d, 0xb4, 0x0b, 0x5b, 0xbe, 0x6a, 0xaf, 0x98, 0xbe,
  0xae, 0x9f, 0x9f, 0x3e, 0x60, 0x8f, 0xbc, 0xbe, 0xe0, 0xea, 0xbc, 0x3d,
  0xb8, 0x98, 0x65, 0xbe, 0x09, 0x8b, 0xb1, 0xbe, 0x08, 0xde, 0xc0, 0xbd,
  0xac, 0x28, 0xc9, 0xbd, 0xdc, 0xc4, 0x7b, 0x3e, 0x3a, 0xe2, 0x19, 0xbe,
  0x74, 0xf3, 0x02, 0xbe, 0x00, 0x2c, 0x96, 0x3e, 0x8e, 0x06, 0xad, 0x3e,
  0xbb, 0x96, 0xb1, 0xbe, 0x35, 0x7b, 0x73, 0xbe, 0x38, 0x47, 0x76, 0x3e,
  0xe6, 0x72, 0x91, 0xbe, 0x10, 0x89, 0x91, 0x3d, 0xfa, 0xe0, 0x58, 0xbe,
  0x58, 0x64, 0xb2, 0x3d, 0x64, 0xb4, 0xc2, 0xbe, 0xae, 0xc5, 0x85, 0xbe,
  0x6f, 0x85, 0x7c, 0x3d, 0x99, 0xd4, 0x12, 0x3e, 0xef, 0xdf, 0x98, 0xbe,
  0x11, 0xe5, 0xec, 0xbd, 0x88, 0x44, 0xbe, 0x3e, 0xa7, 0x93, 0x4d, 0xbc,
  0x7c, 0x83, 0xbb, 0x3e, 0x22, 0xbe, 0x4e, 0x3e, 0x97, 0x7c, 0xf1, 0x3c,
  0xbe, 0x44, 0x1a, 0xbd, 0xf2, 0x77, 0xf6, 0xbe, 0x9a, 0xfc, 0x6a, 0xbd,
  0xd1, 0xe0, 0xc7, 0x3e, 0x0c, 0x8b, 0xa5, 0xbe, 0xe6, 0xe7, 0x9a, 0x3e,
  0xef, 0xc6, 0x2c, 0xbe, 0x93, 0x06, 0x08, 0xbf, 0x4f, 0x72, 0x3c, 0xbe,
  0x7d, 0x98, 0xda, 0xbe, 0x3c, 0xfb, 0xe0, 0xbe, 0xad, 0x35, 0x05, 0x3e,
  0x2c, 0xc7, 0xb1, 0x3d, 0x2e, 0x0f, 0x1e, 0x3e, 0xed, 0x6e, 0xa7, 0xbe,
  0x33, 0x26, 0x29, 0x3e, 0x50, 0xb4, 0xce, 0xbe, 0x6d, 0x02, 0x83, 0x3d,
  0x4d, 0x08, 0x83, 0x3d, 0xd8, 0x7c, 0x85, 0xbe, 0x0f, 0x59, 0x48, 0xbe,
  0x10, 0x01, 0xe3, 0x3d, 0x87, 0x6a, 0x9e, 0x3e, 0xd6, 0x09, 0xec, 0xbe,
  0x7a, 0xf6, 0xc0, 0xbe, 0xa1, 0x49, 0x9c, 0x3e, 0xba, 0x8a, 0xf0, 0xbe,
  0x17, 0x73, 0x39, 0xbe, 0x12, 0x0b, 0x67, 0x3e, 0x17, 0x04, 0x93, 0xbe,
  0x93, 0x63, 0xd9, 0xbe, 0x76, 0xec, 0x2f, 0x3e, 0x74, 0x00, 0x86, 0x3e,
  0x9c, 0xa3, 0x20, 0xbe, 0x6d, 0x49, 0xdc, 0xbe, 0x23, 0xde, 0x37, 0x3e,
  0x18, 0xa4, 0x73, 0xbe, 0x50, 0xcd, 0xcc, 0x3e, 0x91, 0x96, 0x61, 0xbd,
  0xf8, 0x7c, 0xe2, 0x3e, 0xce, 0xa0, 0xab, 0xbd, 0x03, 0xec, 0x23, 0x3e,
  0xe4, 0x9c, 0xa7, 0x3c, 0xab, 0xf8, 0xd5, 0xbd, 0x93, 0x12, 0x39, 0x3d,
  0xe7, 0x7c, 0x86, 0x3e, 0x06, 0x41, 0xcb, 0x3d, 0x89, 0x4a, 0xe7, 0xbe,
  0x62, 0xd7, 0x0e, 0xbe, 0x9e, 0xe8, 0xb3, 0xbe, 0xcc, 0x25, 0xb1, 0xbe,
  0x9c, 0x6b, 0x03, 0x3e, 0x29, 0x54, 0x53, 0x3c, 0x5e, 0xce, 0x36, 0xbd,
  0xfc, 0x3f, 0xe1, 0x3e, 0x44, 0x73, 0xa6, 0x3e, 0xde, 0x40, 0xfe, 0xbd,
  0x70, 0x7a, 0xb3, 0xbe, 0x45, 0xab, 0x7d, 0xbd, 0x8e, 0xb5, 0x27, 0xbd,
  0x66, 0x65, 0x96, 0x3e, 0x90, 0x53, 0x84, 0xbe, 0xd6, 0x50, 0x6a, 0xbc,
  0x93, 0xc6, 0xc2, 0x3e, 0x98, 0x57, 0x62, 0x3e, 0x91, 0x6d, 0xfe, 0xbe,
  0xb4, 0xc4, 0x2c, 0xbe, 0x79, 0xdf, 0xaf, 0x3d, 0x45, 0x27, 0x97, 0xbd,
  0xe2, 0x05, 0x98, 0xbd, 0x33, 0xc3, 0x70, 0x3e, 0x12, 0xf3, 0x82, 0x3e,
  0xc0, 0xf1, 0x5a, 0x3e, 0xe7, 0x07, 0x00, 0x3e, 0xb1, 0x29, 0xd7, 0xbe,
  0xb4, 0xc7, 0x9c, 0xbd, 0xd3, 0xf5, 0x75, 0xbe, 0x34, 0x61, 0x98, 0xbe,
  0x57, 0x92, 0xe5, 0xbe, 0x48, 0x5a, 0x52, 0x3e, 0xec, 0x9b, 0x44, 0x3e,
  0x96, 0x9e, 0xab, 0x3e, 0x52, 0x98, 0xa8, 0xbe, 0x94, 0x3a, 0x6e, 0xbe,
  0x0b, 0x3f, 0xce, 0xbe, 0xe4, 0x8e, 0xa0, 0xbd, 0x4a, 0x72, 0x7d, 0xbe,
  0x23, 0x69, 0xc5, 0xbe, 0x68, 0x8a, 0x8c, 0x3e, 0x7e, 0x52, 0x7d, 0xbe,
  0x44, 0x42, 0xe8, 0x3e, 0x64, 0xb8, 0xdf, 0xbd, 0xe2, 0x0b, 0xc7, 0x3e,
  0x40, 0x74, 0xd6, 0x3c, 0x4c, 0xc1, 0xed, 0x3e, 0xe4, 0xa5, 0xb5, 0xbe,
  0xd2, 0x31, 0xa5, 0x3e, 0x2a, 0xe1, 0x12, 0xbe, 0x61, 0x54, 0x9b, 0xbe,
  0x01, 0xfd, 0xc2, 0x3d, 0xb9, 0x37, 0xc8, 0x3e, 0x25, 0xd8, 0x2e, 0x3e,
  0x71, 0xae, 0x55, 0xbe, 0x32, 0x37, 0x48, 0x3e, 0x63, 0xf4, 0xc1, 0x3e,
  0xa0, 0xbd, 0xb3, 0x3e, 0x19, 0xdd, 0xf6, 0xbd, 0xac, 0xb9, 0x9f, 0x3e,
  0x34, 0x09, 0xa1, 0x3e, 0xa7, 0xa6, 0x2d, 0xbd, 0x74, 0x0b, 0x91, 0xbe,
  0x5a, 0xc9, 0xe7, 0x3d, 0x48, 0xde, 0xd4, 0xbc, 0xad, 0x8e, 0x44, 0x3e,
  0x0a, 0x0f, 0x0e, 0x3e, 0xa3, 0xe9, 0x8a, 0xbd, 0x54, 0xd4, 0x06, 0x3e,
  0xa9, 0x08, 0x10, 0xbe, 0x63, 0x11, 0xc4, 0x3e, 0x1f, 0xa8, 0xe6, 0x3e,
  0xa9, 0xc5, 0x93, 0x3d, 0x26, 0x68, 0x24, 0x3e, 0x56, 0x43, 0x88, 0xbd,
  0x93, 0x5e, 0x62, 0xbd, 0x2c, 0x24, 0x60, 0xbd, 0x9d, 0xc4, 0x02, 0x3c,
  0x27, 0x92, 0x51, 0x3d, 0x63, 0x8e, 0x29, 0xbe, 0xa0, 0xaa, 0x79, 0x3d,
  0x79, 0xc0, 0xfe, 0x3e, 0xb1, 0x2b, 0xd8, 0x3e, 0x5d, 0x14, 0x25, 0xbe,
  0x7a, 0x68, 0xd5, 0x3b, 0x68, 0x9f, 0xe5, 0x3e, 0x67, 0xfe, 0xc9, 0xbd,
  0x6a, 0xfe, 0xff, 0xff, 0x34, 0x00, 0x00, 0x00, 0x05, 0x00, 0x00, 0x00,
  0x08, 0x00, 0x00, 0x00, 0x34, 0x00, 0x00, 0x00, 0x1c, 0x00, 0x00, 0x00,
  0x73, 0x65, 0x71, 0x75, 0x65, 0x6e, 0x74, 0x69, 0x61, 0x6c, 0x5f, 0x35,
  0x2f, 0x64, 0x65, 0x6e, 0x73, 0x65, 0x5f, 0x31, 0x35, 0x2f, 0x4d, 0x61,
  0x74, 0x4d, 0x75, 0x6c, 0x00, 0x00, 0x00, 0x00, 0x02, 0x00, 0x00, 0x00,
  0x0e, 0x00, 0x00, 0x00, 0x0c, 0x00, 0x00, 0x00, 0xe8, 0xfd, 0xff, 0xff,
  0xfe, 0xfe, 0xff, 0xff, 0x04, 0x00, 0x00, 0x00, 0x0c, 0x00, 0x00, 0x00,
  0xba, 0x1e, 0x66, 0xbd, 0xd9, 0xf1, 0xe5, 0x3c, 0xaa, 0x99, 0x70, 0x3d,
  0xca, 0xfe, 0xff, 0xff, 0x4c, 0x00, 0x00, 0x00, 0x04, 0x00, 0x00, 0x00,
  0x08, 0x00, 0x00, 0x00, 0x48, 0x00, 0x00, 0x00, 0x35, 0x00, 0x00, 0x00,
  0x73, 0x65, 0x71, 0x75, 0x65, 0x6e, 0x74, 0x69, 0x61, 0x6c, 0x5f, 0x35,
  0x2f, 0x64, 0x65, 0x6e, 0x73, 0x65, 0x5f, 0x31, 0x37, 0x2f, 0x42, 0x69,
  0x61, 0x73, 0x41, 0x64, 0x64, 0x2f, 0x52, 0x65, 0x61, 0x64, 0x56, 0x61,
  0x72, 0x69, 0x61, 0x62, 0x6c, 0x65, 0x4f, 0x70, 0x2f, 0x72, 0x65, 0x73,
  0x6f, 0x75, 0x72, 0x63, 0x65, 0x00, 0x00, 0x00, 0x01, 0x00, 0x00, 0x00,
  0x03, 0x00, 0x00, 0x00, 0x5c, 0xfe, 0xff, 0xff, 0x72, 0xff, 0xff, 0xff,
  0x04, 0x00, 0x00, 0x00, 0x20, 0x00, 0x00, 0x00, 0x00, 0x00, 0x00, 0x00,
  0x78, 0xa7, 0xbe, 0xbc, 0x5e, 0x76, 0x27, 0x3d, 0xb2, 0x49, 0xe9, 0xbb,
  0xea, 0x69, 0x9e, 0xbd, 0x3d, 0x87, 0x23, 0xbd, 0x00, 0x00, 0x00, 0x00,
  0x79, 0xa7, 0x2a, 0xbd, 0x52, 0xff, 0xff, 0xff, 0x4c, 0x00, 0x00, 0x00,
  0x03, 0x00, 0x00, 0x00, 0x08, 0x00, 0x00, 0x00, 0x4c, 0x00, 0x00, 0x00,
  0x35, 0x00, 0x00, 0x00, 0x73, 0x65, 0x71, 0x75, 0x65, 0x6e, 0x74, 0x69,
  0x61, 0x6c, 0x5f, 0x35, 0x2f, 0x64, 0x65, 0x6e, 0x73, 0x65, 0x5f, 0x31,
  0x36, 0x2f, 0x42, 0x69, 0x61, 0x73, 0x41, 0x64, 0x64, 0x2f, 0x52, 0x65,
  0x61, 0x64, 0x56, 0x61, 0x72, 0x69, 0x61, 0x62, 0x6c, 0x65, 0x4f, 0x70,
  0x2f, 0x72, 0x65, 0x73, 0x6f, 0x75, 0x72, 0x63, 0x65, 0x00, 0x00, 0x00,
  0x01, 0x00, 0x00, 0x00, 0x08, 0x00, 0x00, 0x00, 0x04, 0x00, 0x06, 0x00,
  0x04, 0x00, 0x00, 0x00, 0x00, 0x00, 0x06, 0x00, 0x08, 0x00, 0x04, 0x00,
  0x06, 0x00, 0x00, 0x00, 0x04, 0x00, 0x00, 0x00, 0x38, 0x00, 0x00, 0x00,
  0x00, 0x00, 0x00, 0x00, 0x00, 0x00, 0x00, 0x00, 0x09, 0xe8, 0x20, 0xbd,
  0xf7, 0x46, 0x9b, 0xbd, 0xd0, 0x52, 0x14, 0xbb, 0xa6, 0x92, 0xa7, 0x3c,
  0x2e, 0xd1, 0x23, 0xbb, 0x3a, 0x2f, 0xb3, 0xbb, 0x64, 0xad, 0x5f, 0xbd,
  0x00, 0x00, 0x00, 0x00, 0x00, 0x00, 0x00, 0x00, 0xb1, 0xce, 0x19, 0xbd,
  0x33, 0xe3, 0xd2, 0xbb, 0xe2, 0x99, 0x41, 0x3c, 0x00, 0x00, 0x0e, 0x00,
  0x14, 0x00, 0x04, 0x00, 0x00, 0x00, 0x08, 0x00, 0x0c, 0x00, 0x10, 0x00,
  0x0e, 0x00, 0x00, 0x00, 0x4c, 0x00, 0x00, 0x00, 0x02, 0x00, 0x00, 0x00,
  0x08, 0x00, 0x00, 0x00, 0x48, 0x00, 0x00, 0x00, 0x35, 0x00, 0x00, 0x00,
  0x73, 0x65, 0x71, 0x75, 0x65, 0x6e, 0x74, 0x69, 0x61, 0x6c, 0x5f, 0x35,
  0x2f, 0x64, 0x65, 0x6e, 0x73, 0x65, 0x5f, 0x31, 0x35, 0x2f, 0x42, 0x69,
  0x61, 0x73, 0x41, 0x64, 0x64, 0x2f, 0x52, 0x65, 0x61, 0x64, 0x56, 0x61,
  0x72, 0x69, 0x61, 0x62, 0x6c, 0x65, 0x4f, 0x70, 0x2f, 0x72, 0x65, 0x73,
  0x6f, 0x75, 0x72, 0x63, 0x65, 0x00, 0x00, 0x00, 0x01, 0x00, 0x00, 0x00,
  0x0e, 0x00, 0x00, 0x00, 0xa0, 0xff, 0xff, 0xff, 0x14, 0x00, 0x18, 0x00,
  0x04, 0x00, 0x00, 0x00, 0x08, 0x00, 0x0c, 0x00, 0x10, 0x00, 0x00, 0x00,
  0x00, 0x00, 0x14, 0x00, 0x14, 0x00, 0x00, 0x00, 0x34, 0x00, 0x00, 0x00,
  0x01, 0x00, 0x00, 0x00, 0x18, 0x00, 0x00, 0x00, 0x34, 0x00, 0x00, 0x00,
  0x04, 0x00, 0x00, 0x00, 0x02, 0x00, 0x00, 0x00, 0xff, 0xff, 0xff, 0xff,
  0x0c, 0x00, 0x00, 0x00, 0x0e, 0x00, 0x00, 0x00, 0x64, 0x65, 0x6e, 0x73,
  0x65, 0x5f, 0x31, 0x35, 0x5f, 0x69, 0x6e, 0x70, 0x75, 0x74, 0x00, 0x00,
  0x02, 0x00, 0x00, 0x00, 0x01, 0x00, 0x00, 0x00, 0x0c, 0x00, 0x00, 0x00,
  0xfc, 0xff, 0xff, 0xff, 0x04, 0x00, 0x04, 0x00, 0x04, 0x00, 0x00, 0x00
};
